01110111 00101111 11111011 
00011110 11011000 00001111 
10100100 11110111 10001100 

00110010 01111000 11101110 
11101100 01010110 00100100 
10100010 01011001 01000000 

00110110 11101100 00100000 
11011000 11001100 00000010 
11000110 01111101 00100010 

10001111 10011110 01010011 
11011101 11000010 00110100 
00011111 10011010 10111110 

10111001 01000101 11001111 
00101011 10101011 01010010 
11001001 01111001 01000111 

10010100 00000011 00001100 
00100110 00000010 10110010 
10010011 01100110 00000110 

10001111 11011110 01011001 
11011100 10011000 00001100 
00111000 10001001 01110111 

00101011 10101100 11110000 
00101011 00001111 01100010 
00000111 10111001 01011110 


01011101 11100011 01110011 
00000001 01000010 10101101 
00101010 00001110 00110100 

11111100 01011100 01101100 
00011011 01000100 11111000 
00100110 01100100 11001111 

10010010 10001100 11100111 
01011110 00110001 10100000 
00100101 11101100 11001111 

10111001 11111101 00001000 
11101101 10110000 11100010 
11010000 11010110 01111100 

00000101 11010110 10110101 
01111100 11010111 00000111 
10101000 01010111 10001000 

10011011 11111101 11110001 
10100110 00011000 10100110 
01111110 01000111 11000110 

10110110 00111001 10110100 
00111111 01000101 01101011 
00010000 01100010 01100010 

10010000 10000001 01010000 
00101011 01110100 10011101 
00101110 00101010 00011100 


11011110 10011001 11111101 
01010110 01111000 01101111 
10100101 00001010 11010110 

10100011 01000110 00111010 
11010100 10110101 00111010 
11101111 10101010 01100010 

10100011 00010011 00110010 
10000100 11001000 10101010 
10010100 00010100 01001100 

00111110 01011001 00011000 
00011010 01101000 11001010 
01011100 00011101 10110000 

01001001 11011000 11100100 
11001111 01100001 11001000 
10111101 01011000 10000110 

10001110 00000101 00101010 
11111010 11100101 00100110 
00000001 01011011 10001011 

10011110 01001110 01000111 
00010101 11101000 01111101 
11100100 01011010 01110110 

10110110 10101010 10010010 
00010000 11111010 10010100 
00000000 11010110 01011011 


00001010 01010101 00110101 
11010001 10111111 01111001 
11000101 00111000 11011101 

11100101 10010000 11111111 
00000001 11001000 01110011 
10110011 00001000 00100001 

00000100 10000100 11001000 
01111100 10100101 10101010 
11101010 11011110 11010100 

10000011 11010011 10000001 
01010100 01110010 01011101 
00101110 01100110 10101110 

01100001 00011111 10001010 
00110011 11011110 01111100 
00111010 11000011 11110001 

00000111 11100000 01101100 
10110010 01111000 01000001 
10111010 01001100 00101010 

11100010 11110100 00101011 
01110100 01101110 00111011 
10011000 11010000 00000011 

10110101 01011000 01010001 
11111000 11001010 10110110 
10000100 00001100 11000011 


11110111 11001100 10101110 
01111110 11101100 00010011 
11011100 01110001 01011011 

01000111 01100101 10111000 
10101111 10001000 11001011 
11111110 01001001 00111011 

10000011 01001101 10101000 
01101101 10100001 10101110 
10110001 01101011 10111000 

11001110 00111111 11100011 
10010110 10110100 00110100 
00010110 00111000 10010001 

00010100 10101110 01011011 
11011110 10100010 11001011 
00011000 01101010 11010110 

11011101 01100010 10100100 
00010010 01101010 10010101 
01110011 11100000 00101110 

10001111 11111010 11111100 
10110001 01000100 10011100 
11100100 10110111 01101100 

11010111 10100101 11011110 
01000100 00011101 01111110 
00101000 11011001 00111000 


11110000 00101000 00011100 
11001111 11011100 01010111 
11101111 10111010 11000000 

01011101 01110001 10101110 
01000000 00101010 01111100 
00010001 01101100 01100010 

01011110 10001011 10110010 
11110000 10111011 00000010 
00010100 01010011 10000001 

11101001 11100100 11011011 
11101010 00011001 00011100 
10011110 00100111 11001011 

01111010 00010000 00110010 
01010100 00100010 10001001 
10011100 10011011 11011001 

01000000 10101110 10111101 
11011001 10110001 01100110 
01111111 11010110 10011110 

00010100 01110010 11011011 
00110011 10110001 10111000 
10001110 00011001 10110011 

11011000 10100111 00111111 
11010001 00010111 11010010 
10011011 00100110 10110011 


00100110 11110001 00011011 
11010100 11110110 00111110 
11110001 10111001 01010011 

01110011 01100000 11110101 
11101001 10101110 10000100 
00100001 10000001 00011001 

11110110 11100100 11000111 
00001110 00000010 11100010 
00101100 10110010 11100000 

10101011 01001100 11100011 
01011110 01100110 01110010 
10000010 10101101 01000001 

01011011 11101010 11101011 
00000011 10001100 00101001 
10010011 11000101 11000110 

01010111 11000011 10111111 
00110011 10011101 01011111 
00001111 10110100 00001110 

10111101 10110001 00000101 
01110110 00111101 10001111 
00011100 10001001 11101110 

10101001 10111000 11010110 
10110110 10110000 01111101 
01001010 01101101 00100100 


01011010 00001001 11111111 
10110100 01010010 11110110 
10001101 11111011 01110111 

00011100 01110100 01000010 
00110110 10101010 11010111 
00000010 10101100 11000010 

11101100 11011110 01110000 
11101010 00000011 10100000 
11000100 11000100 01100100 

01100100 01010110 00111001 
00010111 10001110 11110101 
10100111 01001111 11000110 

00000110 10011001 11110000 
10001111 11010110 11000011 
11010000 01100101 10001010 

11001010 10000001 11001000 
00011011 00000110 00101111 
10111101 10100001 10110111 

00110011 01011110 11110100 
10100111 11100011 01011101 
00111100 01101011 01101101 

11000100 11101011 10000111 
10000101 00100110 00100100 
10100011 01011100 10100010 


